00000000C81DB8EDAC
4FDEDFC248B4B7F93F
4B42E217CAC350E9E5
51100AF4F112D9E9C3
3E1E081CD5BD9B1447
DAFF181625039DCBA1
D415EF052ED2E6370C
D64000E22CC207DCCD
C603DB4301FFB7D2C1
00000000F917FC151B
F3F1331910EDF0EE0E
28FE07171C04282CEC
D81E1413342412F50E
E2172ADA1D2220DDF3
20D81E29FFDD052EF3
F6F9290BDD060CD31B
DC0E01E9E1EF22EBDF
EAE3EFED2B240F1723
0000000004E0F4FDB7
C13422EAEC2DD13253
F236BC48BC27D8EAD9
1931DDCE591B39CEC2
33070D3B001EC62129
27CE2216C6C4CD1436
34D147F7052914BCF8
D3F4D5D1E00B3BEE09
CF03C439EF08FC32FD
000000003FD7392EFF
234E03CF0F25C3CA33
D7140FDBDD1D1A16F3
F123D20AF40035DBEF
F1ED3E46DC09EC2AC5
20F7E2E5DBD322052D
162E42FEEB1B35F1DA
05332CE63FC5DD1C19
ECE34532240DD8310A
00000000EEE4ECE3C0
FDFB2BE7190BC8F73F
2639CBF7BDDE03C1F6
FBE2CAB7050006D7FE
2638162A45E42203D2
2225E101BE40B81BCF
49C7D0F30CF9F7F7C2
3909DD1B06C8C0E5F6
01F811BDDA1BD9CCF1
000000002116CD1FBD
DFD2C64BFDBE191E0D
AB3B13C300C5D70BCB
D034D342584AC0BC34
393D352AE7D3EBC326
6012C23CF7D4F03B28
D1F3C0C2393A07BD15
D80BCA3FEA342ECC3E
C2B5C7174141D3ACB3
00000000D8DE4BF626
D8F5E0E0F50EFE2C21
2FC447182DFF03E8E6
12E326153C05EC11F8
CFD420F1CB07E7081D
3617282E0BCA00E527
D2E4E103DDE21CC3E7
E5CA0933D129031915
EF2512FDEEE6E415DC
00000000150BD3FD16
05F401030AFEF3D208
DB2B0E25042E2103E2
D9E326DEF6E2D9EFFE
0BE85020F1E103040F
1EDF0DF8DAE2EC3C0F
FC25ED3EEB3725FBDD
262FD3E91C0831ED0F
D7D70D380735E616EE
000000005886E66A0C
9C6A41B6C367DDD161
D004C33CD62BACCF8D
99C9F1DDCE51F94702
C1DEB0553E3540E716
E34ACD0210208AE92F
FBFD5FB43118C601BA
5DDACE27E6D91A37E4
E8C82F962CFE42FC4B
00000000EB1828F22C
1BFC1B1102D5FE262B
0D271F0828DD0BFE27
E311ECFBEFFA262523
070AF925F9FA270BD3
E8FEE125282C1F17FE
F2180923FAF6012C1B
E50D2D2B092915F1D3
1131F72AE403EF052C
00000000262D0EFAFE
0A180A15F2C11FCBFC
DFE930E906D41206EC
26E7D9E40017D3D62B
331B0C30271001CED4
2DD92119E029CA1BD5
1B1CEACCC92BF9302F
2AF2ED0E28E127F6EA
0802EF2BE2EAC51FEF
0000000036E8383029
DEF2E9F60017EA36E9
37D4180505C9190E16
F9321DE81ED4F1441A
101BD8C517FA0D1F1D
E30D17F51EE016B7C9
E109C9E821D9C5D63D
1A010AC428FE4019D1
131E331B41012BE9F7
00000000D50EE301D7
F3D1D70844E8092CCE
F60AF7EAB53BF1CA18
1901FA3519D60FCA11
10E812D53302101F4A
C8232A1AF4271B2BD8
E0FBD8E21EFEFC3BF1
E200F2C5403CE62017
322D20DE44F1F80DF6
00000000432CC1E2A9
FC2B3A3926F8AF12DA
E9DEA1E92D4D3C2FF7
3500DEAED442D09237
1D0528F8F83F2CFFAB
08BBE2B7C201BC04ED
3A2861BC5662D5ECF2
2FC70312ADE0DA631A
1B34D3CEECEED5DEFD
00000000CFCE0B0CF0
E5A519A44532F93807
C20D090CE140A7FDD1
075A912AB55E03FEF6
1F00CC9C5D6BAA1941
59DCC65640D9CCF135
DE70ACC6BDAD8040DE
2C6333FACDCC68584D
3B4F26B5B0F661F44D
00000000FA422540B2
24C6B91A20E3431433
023B0ED3162213E1C0
19E30058DE9DBE12C6
434CD8EFB73C31F300
D3BFD6CCDC150D14B1
CC040C42383B23F911
C51420C7FD493CE9E3
C9D8BF5A352827B9A3
00000000E9F5110CE5
131A1E12FAED220F00
F71BFC0711270F1323
DBDD0CE51DE0D202FD
F0021EF702F5F6F213
2F00D81AE41DF7F808
02DEE81B101901FE15
00FA1CE7F0120FE4F8
ED2B1701EDFBFCED08
000000001E30DC201B
0CD926E1D8DE0EFAD6
02151ADE2CD8DBE0E7
281421D7EFCE06E12D
F5FEF7E0FA1528EF32
E6E6E32EDB3020FB04
2F272D32FFEFEC092A
29012BD8EF160C111C
DF1B11F5DB32E5EAF1
0000000047AE25F324
C93540FEE0E327FB04
1A2F203C6034D059D1
B5B05B3F09563BC5CD
FFCF02EF1EBEDD53BA
B91523A5220F20B04C
C2D80915D004B80428
B4D33B2326B138E405
F4BB45DBEC1FDBDC12
0000000011DE5D4C45
E70014EBC5104322E8
0BDBBFEF432FDCFEC4
28EFB3EEE00C1F0D2D
D630C3DE48DCB23248
C2393A0DD1C916240C
40E5091CF2F2C3BA3F
BA002CDEB3D047F4EE
E0454442E725C500DC
00000000DDC13AD7DF
18181E3311C63799DB
41C623FAB9D5E72101
B2DB4B03244AE4EC2D
DA310BC8D53FFBF1C5
2FE229541AC6FCE61C
F31FDC12C0F12DD1F5
E424BF37483DC925AC
D82F35F845E60833E7
00000000FFF80BF8E5
F621FEFEFCF32EE621
DC14EC27200631F1FB
1DFFD82003F5DB2D01
FB230AEDF9022AF3FF
E01E0220E0FE082F13
DF18262E20F0E1ED20
DF232311E1FDF807FB
0BECFC2F0EDCDB2721
000000002A25CE269F
0B41E2AAB73936589D
D4B32A1DE025B637F5
B7E5C7B5168B8C0048
28121B3B0B8ABFE60C
40D7388F032D4410ED
C202B7E3CF073EB9EE
CF56E413DEDBABD7F2
ABC710C4C52E2FC822
00000000300F0D34C9
D8E5B9FF3EF8F71633
09DC0CE91731F4380F
40C7C3F237C8CCD4EF
C216E420FB0FF4D9CC
CA37B8F225FE3EE60D
0907F3BCFCBFBFDA2B
D4BE39B9F700BEFC1A
280DB4F4C01C2ED92C
00000000E012210BF1
0ED9EAFDEA260809E1
200FF00004E3EE0EE8
FB070C120A0BFFEAF7
2105ED1F171BE91E01
E01AFCF119DE19E4E6
0313F0E011041FFBDA
06E5DEEA131CF0070F
E0041A0F05F6F21DEE
0000000018C8E0E5D3
F9D028F819222EC916
28D22BED1317D3F228
130CE3F715251DC9EA
20F91C0B0B202A29EB
0211D73527E72A350E
DADFE1F0C7E511E018
2927E647C231EC04EC
36400E03260C08D31F
000000001C1EFFCD2B
201D1034B33142C901
CBB73EF6F13A4DD303
03F92CD7382A28D524
424947420814F73E30
28D504BEC9C82DF0E5
03260F331BF4B5BC1A
07DF12DB40E11EDFB7
F791FF1E134ECA2703
00000000EC35D4E1B1
312AC9230E4BC5BEDA
3EF4EF1937D2D7C656
FA2AB0FF222F2D210B
E7FBCF10410005EB18
E40F0AD70C214DDE17
DA31C4CC060ACF3FF8
D5E8C703264338EED8
44E9E9EE06E4081F3D
000000000EE52C3449
68C4F814FFECE131CE
470DEFF55B29C6B7C6
1FC3ECE031FE073EF4
5106D8E3F7253B2C40
C94FCA001114D5354B
B42A251D17E0012AEE
FDEB14C7A7C8143913
E95945ECE40ACEFCDE
000000004F2216B4CD
5049AB1147BA5852A4
340EEA14F105F2273E
9BCAC7ED0A3F124213
69BA53D43AD14442F6
C929B7AC390046BA49
0C2CE5E462CBAE4B08
F9082A0F02530ED5C0
2501F652E31EF2DC13
0000000003F0D9CBE4
B2DC42FB05E6E8242B
C0F1FA2A01EEC1D0CD
CC101FD412C41600B3
F8073DFE501EEAFD1E
C4321EE93240B7E6F3
F52AB412C7CB4CDB34
1934D533D3DB18E1CF
0114BCE106C2DBC709
00000000C6FCE3FCFB
CDF8FB20D9E3CCC70B
CE3030DCE4E9F3E2D5
12FC02EC20F1F9C0E7
D603C4061EC6E4C70E
E500CC03FBF206D3D9
D12AF8DBEF14E939F9
0EF9D60EC8FB06EB2E
00252F131810F005D5
F4FB25DC0A16F905F8
0000000000000003F1
F30D12060C00191807
00000000000000FB74
FD060C05080CF4F905
00000000000000FCEC
FE0EFCF6ECEA33FBFA
0000000000000003F8
0B01FF060A050DFF0E
00000000000000FC0A
F9FD0F0E0CFEF70F0E
00000000000000FC68
F1ECFE040CEF12EEF5
00000000000000044E
DFF3F4E922F1EA1E25
00000000000000FEEE
29DDFDF5F80E161803
00000000000000FD14
D2CCFD321010D11BD6
000000000000000468
E4FDF9E11EFB0FED00
000000000000000285
F717EBF00A09F6FDED
000000000000000266
0411E5EBE7190CEB1B
000000000000000013
15FA0FE61A1002F5FD
00000000000000FC87
FFF30CFC0512FBF110
00000000000000FE56
2D221303F5FCF3FE12
00000000000000FA60
0A6ADB80163703B8F0
00000000000000FF8A
17F61C11160201ED0B
00000000000000FB29
0C0AFBFB13EBFD10FE
00000000000000FE33
1BF1F8F3EC1BF20D14
00000000000000FF42
0D06FE00FE0F10FA08
00000000000000FD11
F51F11FAF1051DFA09
00000000000000FBA1
F0130A06FA010C0411
00000000000000FC5B
04FE11F90B0C030813
00000000000000FCB6
18FEF7191CE21AEBE7
00000000000000FC25
E4E2F5061FF00FFEFC
0000000000000003BD
0E071004090A050203
00000000000000FBA2
03F22FD3090C11EEEF
00000000000000015C
CF11E329F401331C02
00000000000000FDFE
3029FE1A0325DAEEE9
00000000000000FBBA
D519F3F0040212E002
000000000000000483
B312D52C190E21C8EB
000000000000000250
11F62D13E02D2C24E4
3028E3F01E2006EE28
F617D80D1E2F12ECD9
0000F05DD8D9E5332F
3527D0CACAD2473912
1FCC2DF0DD160EE312
D3CB1CC0E133CDD217
000005CF040EF20818
DB0354FBEC7850C163
E45FC8E4372EB63609
D9B313EEDF01ED5BD4
0000FCE9E9B4221A8A
1FE40353F86C309B7F
1220FB42C3DAAB3DD7
D2E00140C54A0CAC2A
0000F36F582ECD29C1
E8EC2CEA0E010F1128
17CC13E4E5E9DCDB2A
E3D413DBCF31D5ED1D
000008E7F636C51ED4
C4D8EB41FD5EBE4DBC
A722CDDDC636C21647
F72329C92109485BE5
0000FA25C3572BD72E
F717C6C7DED7BAF7C6
CFF818CB12312B2C24
23C532BA43FCF816F2
00000E75C7EF01D835
EDC5F01BE1BA37C5F6
E3B04F22FA36A2101B
5C4515E02B3C0238EA
0000FD9BF1D8101FB1
D5AB39382522C73CE9
E1E2E33BFA4EFB19D8
293334DA11F2B05DD7
0000F8CD44F1F321AB
E022FD0708F51AFC18
22172815E436F330C4
31D42DFDC9EBCEF827
0000FD9FD41EEBFCEA
07D20A3FCCCA3BCAD5
FFDE36FFC82AF2DB32
342629DEF71FC12FD4
000003A13BE41ECDD4
EF0CC037EE2448CE1E
25C416F434F01346D2
2FE321F6F9E3EECB1F
0000F6333817ECF933
E71357E9145357F226
276D1ABBE501DD012F
1E1DEBE205E8BEBE09
0000FA9FD7D00FE1D3
07DE09DD191D06D4DF
2A381B31EDF1CED206
E3D8E9370835140533
0000FBF9F0300CCA14
DD27D432DDF9D012FB
220FF8F504180202F2
291FF61CCFF0C80818
0000FE6F20FF050D13
B6C92F472D401306B9
DBD8231FF122F04D26
19EE1941B80FB423F8
0000F7BC44D3E245C0
F1E6D6262A0BD505CC
12DDCCE304EF18FBF8
1BE0FAE226DA23192E
00000319D6092B2016
15CFB7E2FB431022CB
1DC41B36B0140923BB
C0BE3A00481DBD0542
0000079F35D4F615BD
DF24142C021BEDFF1F
05F3F6FB2EDD30DAD4
01E72F07072DF8F4FA
0000F804D8012228EC
F3B601BE362BEC3143
DD3DB8C60E150742DF
2C391F19080FDF0FEA
0000F029262B2335F0
081FCB29EBD0111AD8
C82C31DFCAE3E0DCF9
2207D538EB072914F0
000008CACA3E20E9CE
3AF10EE42D150FD00F
2311061FE03907E41E
E122D1E63411D5E535
0000EDD73437152AF8
2324ED2612091B24E1
D5E3E0181CE8090BE7
1E0F04EDFEE31B17E6
0000FB7C07ED0A11F6
DD2FF11B34E60ED326
D2F3ECFC261E011228
3525D213D735E8D610
0000FBD923D2D10EFA
DAEDDDBE24AD0C29E2
0B143C203513F03BEC
00091A18EFF2BB1132
0000FCD93E0BEAED01
F1254AD80925E3C9CF
C9A298CD1337F5A1E1
5438270B414CD63EE9
0000F847FC2856F14E
ECCBC7032B35E0E8F2
F437B6E94C22F12945
12CE26D6B9202A3A1D
0000FD5205B63BFAF6
BB45A926181AF4E1F9
3A140FEC0C12FD33ED
3FECE1FC2FCBCC0B3C
00000043FB18F1DFD6
D4C851550849AEDD1B
9D100E60FFB227F1E7
F4D8E41DFD35F6EF10
0000F5A4255AB33C5C
56D2F3CC28012615BE
0F3937F4F0E92711C9
0941F60A2A2D0CDFE8
0000F6913102C2DE2D
2033B0E8DC2639D9D9
0D341BC815172D1729
2AAE2019C1FDE6E023
0000FDE0FC45D3E703
2D0C13360DF703D904
E9EC0BCED9EE2A161D
21FED1372A1238EDC6
0000F99E0503CE090F
0EED26DBFC0F2FE50A
D500FE0004E9CEF913
D5B9E1ECC8DCE2FF0D
2D234B4C27111C1C04
562E64546F583B4018
D8A59DAAC8D28DA9CC
F613E84A4C42575122
14EEDFDB839DB8ACD8
45254530282FFCF53D
C9D307C8ADB80115F8
1D34594BFF4023293D
DCAB9CAA0ABAC9B7EE
F503D6CA0111E3EF44
0F2B04084BF201D1DE
454D244709F6090DDC
B4A4B9C3FF23E6D40D
0C3D4C533568432D5D
D7B5DC94D0B7B8DDF5
B3C7EAB8A9E2B8CDE4
362D323D47140F1A2D
321B12F7030704E41F
E5D7D9CF1AF721D0FF
DAF1AFD4EBE1CFC6E1
431C09302C362F1646
32264A3B0134310823
D2BEDAE1FBBFDFEF12
CEF8EB38EA1D30DFE5
40F306BE110FCE2324
06DADDB8BDBADADDC2
F52E390B4E23432D1B
442C4C512536FB38F4
B8FAE6C8BD0EFBC3F3
22100BE4D322E2F40F
EA19E52F0A08D8FEF0
C8B2DEE50E101223FF
67300B0B00D70209DA
DA02D0C4FE1802F1D7
DD37FC0A1E253B0507
E52B2C160C03291322
D9FFBEFADB1FEDCCF2
EDF1FDD0BFAFCCF596
2F08295363514B4A5A
B9A5FFE8E7063C0832
6B50FBFEF0FCE3ECE0
FDE5FDCFB0F7D1CBFD
3340FA3F5026EB1E2A
04FEB9FCB3C0E4CAB1
D5F72C37340A212928
EBE5CDE4F8C5B5C0E5
372F3120453A1057F0
543D5E29421B3C102C
CBABD5C2ADC5D9DBC3
15EA10F1EE08160A06
F1F8E71D051DFBFC1A
B7B0D8A0A2DAEAB8E3
353E4A286138383C48
2E110E61367264341F
FFE9C4E18FC49B9AC8
DFD5EFB1F49AD408CC
0C482A4C267704F71B
C0E2B2A286C0E6FBC9
3F44166B3B4459F71C
E9C6EFA0DDD8F3FFE3
144A111649063D3A0C
0000000000F6DF053B