000E21
006F20
17101F
11E61E
FC831D
03271C
0A701B
E8741A
F13D19
121C18
0DEE17
016D16
E7FD15
04CA14
0B1613
0BDE12
0F5211
EAF710
05F90F
036C0E
F12B0D
FF9F0C
0D810B
FD2A0A
E9DB09
0C7708
F56007
F12406
F45805
037B04
EAC703
F01202
ECBE01
153200
